{
  "version": 1,
  "generated_at": "2026-04-07",
  "model_path": "D:\\Models\\bitnet-b1.58-2B-4T-gguf\\ggml-model-i2_s.gguf",
  "llama_dll": "D:\\GithubRoot\\BitNet\\3rdparty\\llama.cpp\\build-clang\\bin\\llama.dll",
  "seed": 20260407,
  "sample_count": 8,
  "gguf_version": 3,
  "tensor_name": "token_embd.weight",
  "tensor_shape": [
    2560,
    128256
  ],
  "tensor_absolute_offset": 8351360,
  "element_type": "F16",
  "element_size_bytes": 2,
  "vector_length": 2560,
  "vocab_size": 128256,
  "first_layer_rms_norm_metadata": {
    "eps_key": "bitnet-b1.58.attention.layer_norm_rms_epsilon",
    "eps": 9.999999747378752e-06,
    "weight": {
      "tensor_name": "blk.0.attn_norm.weight",
      "tensor_shape": [
        2560
      ],
      "tensor_absolute_offset": 665022080,
      "element_type": "F32",
      "element_size_bytes": 4,
      "raw": {
        "storage_type": "F32",
        "tensor_size_bytes": 10240,
        "tensor_bytes_hex": "b7ed8e3cc296923c4bda9d3c1214e13c3db5543c3388953c344ca83c427e913c6239a43cf246993cb499953c98d89b3c831a6c3cb3b6883cd5b39f3c1033973c194e9b3c7bad9d3cdd1aa83c87cc693c209d893c98828c3ceb7da93c2e94af3cb519973cc444853c603c983ca705843ce5ce993ce84d993ce204a33c07d6a93c8cba8a3c95fe903c0f53853cf28c833cf5556f3ccdbd9a3c534d763c7cb5913c2ad8ac3cd003853c0095973cd990ab3c309e8f3cd35c8d3c84ca923c150c993ce216ad3cdf739e3c65e89c3c02e4ae3cb7629f3c61a6723c254d703c4780993c8861753c41568c3c8a5ea13cf036a73cb1628a3cba6b6e3c9cf3923cb242b43cc7fea03ce945833c6cd97f3c718c893c891f3e3ce14f6d3cdc0d723cd09f8d3c3e29aa3ca7d4813c88d8ad3c4669373cc688903c69af903c6616973caef8653ca0c7823c0c53a13cd8cd883c24cea03ccf8f933c4c687b3c5164ac3cc50e5a3c3381973c71d3713cc851993cd2aa8c3ceefd9b3c8b7ca23c8687133c67a8723c63e49c3c0a9a993c78628e3c32187c3c47b7433c8116a23cef3c6e3cf48d9b3cfa92983c05bd863cdfe0993c34f5af3caa86973cc6159b3cd01c4d3db9a9a03c763c973c6302743c93219d3cd0229c3cf6c49c3c0808853c8e98ab3cd8f68a3c1541b33c2ac3993cf177a63c112f983cab0f973c947c9f3cad75213ce5ea833cfed72f3c50e5203c40ff9c3c0e0f943c5fe78a3c54bda63c1151863cfed7853ca367963c3489893cf9d0803ca091843cdc6e7b3c730f9a3cfe31a33c5a6d913cb7889d3c40ef873c1643a13c23f88f3cc1e7153ca0c2353c03cc873c6b8ba93cd042613b8f43753cbdf79d3c7a78b53c4e4c9c3c80909a3cdb65b43c05e6743c24e1a23c76d9a83c5570893c1dd28f3cc9fc8b3c762c873c27e46e3c7bb3883cd78c9b3c138f9b3c38f8863c7738853cc2f78b3c383f973ce01ed93ba08b8f3c6eb99a3ce969923cef579d3c8b80a03c6fed8d3ca9a1a23c9973803c68a5a43c38106a3c44ef783c768c823c1e95833cf24ec03c73355d3cdbbd9f3c909ca33c657a793c006fa03cecfb993c25ceaa3cf45aa13cd0379c3c54d1b33c0b058f3cf166bd3ce789353c9cac573c2c25983cc1f88a3c3722933cd5f7ad3cff039a3c35c96d3c5a1b7e3c360aa13ca387953c0308a13c0b7b833c6d2b993c13d8993cb5ff8a3caa3da43c8a10483c2698973cc87e993cf76eb03ca1ef773c67d0703c2ead823c0300883c321f813c92b8883c4d36583c14628a3cf944983cfbea753ccc12903c9880b53c430c743c0a23823c46e4c33cd088783c824bac3c78808a3cef03b23c9a0f983cb0ada63c4d0a953c3e14853c2893ac3c4c67993cea4d913c2f738f3cf7db0e3c098b913ce089983cf2a8983c89cfa73cdf7e963cb2c1193df7e49f3c72f1963c86e08f3cd760813c16dd963cbba5743cd34e963c4e2e6f3c01189a3c239c893ca3999c3c9702b43c5e13833cf8b68c3ceff9a03c301e5f3c1335853c66b1963c8590873ce915973c276fb13c7d6a953cf6ef783c50c9963c055aa93c9d5a8f3c1a73a63ce063ac3cf9f9ac3c5f4b723bbcbbaf3ce63b703cc4d38c3c4f3d8a3c0861933c0c9d8b3c0260a63ca8848e3ce4f5913cbe1b763cac058a3c4462583c862ca93c16dd853c9026a43ce3a55b3c7e5f8d3c1647993c8020ab3c6d087a3cf91aac3c7bdca33c67d4a83ccd52a53c8f1f8f3c293ca93c2bf6943ce8ba983c0388a03ce784753c2407973c3f73913ce9a82f3c1cc0943c08a0a03cc6a18f3c40fd8a3c6b1d763cbb759a3cbf57a03ca4bb963cd7bb963cd1f29a3ce9d0933c199a623cafb2583c20568c3c3311a83c95359c3c9852a63c6da09e3c7333863c5251953c8fb1873cafa0933caa878d3ca14d943c9a2b763c97bba53c50dd863cdeb58f3c9db88b3c1f7baf3cc9aa903c4da0873c41c1683c6238923c93fb913c1b2fb73cd1509e3c98f78f3c60467b3c5713a53cf7f7a83cab81ab3cb814b43c8c54853c11cd903cbe71963ca2af883c6e72963c2f02b63cb14baa3c422c8f3c999ca63ced1d6b3c2b6d8c3c43a3093c547f6a3cdd21bd3c526a663ced43883c23b79e3cd4ba1d3c2a20ab3c5c789c3cd80a933cf791873c4b33993cbbfe9a3c1d188a3cb4af9b3c908a953c514c923c28ca983c25a8a53c93c28f3c5b56893c24bda23cff768a3cc6c2873c0aea9f3ce523a93cf9517d3c98cc983c0363803cf906863c4783943cb322803ce06e9c3c5ef4983cfee69c3c42b48e3cf31e9a3c75aba73c3e7b9e3c25b9ab3cd9f5ac3ccd2f843cee03973c5321993c0c7d253d8526923cbc37963c93d86f3cc7ea963c566eac3cde099f3c74dc6a3cf89f8a3c651e873c7dfa4e3cc124a33c45599a3c1924963c27309a3c0c65913c2715943c70d57e3c28339c3c1876a53cbb527c3c554c8d3c9f09713c5daf963c474a7b3c7646a33c27ce913c174a693c9cfa903c9110603cae78973c245ea33c2b1b8c3c0a6eb43c4d859b3c3880af3c02d99a3ce96c953c6865b23c576a833ce24b9c3ca6f38c3c64ce9f3c0908a63c9f48993c4da0773cacb58e3ca9f4943c68569f3c3225703c9865753ca099973cf40b4e3c2290733b3725b53c99a9863c2ccd823c0f99a33c92408e3c0643613ca114863cf017883c3d4b993cf33c953c54ec9e3cc290503cae1ea93c1c07a83ce190833c4226a23ca8a6863c7e97803cb544a23ca619a93cace8933c4321a33c51085f3cf235153c3561933c888e8d3c38ce973c4527a53c8f3fa73c4727963c2c8b873caf14ab3cd382843c1a0d933c2f3a9f3c7e6d953c3745b73cf90e8b3caf0c863c93ba8b3ca2ac763c4826713c6f61953cbc90783c3e0f433b0b669d3c58c59d3c52d7713cc80c993c2984b63c8a0d993c46998a3cb377963cd6d6813c02b23b3d748d913c44ecb63c01c2823ccf3e853cab8e543cc8f3923cfa6cc53c0727933c88b3913c2e78b23c5f074a3cca54863c6e4f953ca75c7e3cd0516b3cf541953c31f1933cc448a63cb95a9e3c15808f3c08a89e3c3f22953c01b6943c4e57ab3c35b3173dbe99753cc87f863ca57b953ceadc853c6aac9a3cd73c8f3c676da33c2901813c8f81743ca2a28c3cc087893ce557933c372d083c6a8f893c762e8c3ce60ba83c0c0c693c5f61803cd50b8a3c279fa73c5c5e893c5bf2993cee53853cdf50933cd9c7bf3cdc94813c4e49943cc7b2833c05f3ac3cda81843c4a64963c5db38c3c526e7e3c5eff473caab58f3c7dd4773ca875a93c92928d3cc149873c9c8f993c33329e3c942f933c9ad2a53c60bd863c1310a13cf0076e3c4379a73c2bf79f3c3d21b13cdeb9cd3bbdae843ce699893c435d9a3c925f943c247aa63c61bba23cddba9b3c06dc513c6078963cde8ab03c0c5f9f3ca16ea23cbae8a93c33e6af3cd72da63cc1bd7e3c826eb83c72a1873c5e8fab3c0f09983ca8468a3cf7e4163cdf197d3cc28f893c3723623c1e51803cad73943c13a2893c9e8b903c48fabb3ca1de8a3c20dfae3c23fc8c3cc350b43c20034c3c516a823c7be68d3cc80d813ca6497c3cd4bd993c4874953ce666893cd606913c9022993c29a3993c04b9863c7e7b913c79b6a53cc339933c63106b3c8e53ab3cfadd903c4654893c4520923c555f5d3cd482633c04f2783cfed69d3cd29f8f3cc44e823ce558833c9fe39d3c9d358f3c6e468b3c7a0ea83c0b0ba03c8aea993c9b81853c4735973c320c883c51e4a43cde54773c0a70823c2f439e3c0ee7903c3ed29a3cc8d79d3c19cf9e3c4ad1893ce25f6a3c3b4ca23caee8973c0621993c87848a3c9acc963cddcc643cfa82893c11ff8d3cf672943c4b669f3c6fcaa03c2feea33c19f3ac3c0e549e3ce9c51d3c0b9aa73ca54c953c23369b3c1f82a43c0054453d2566863c4a97b53cab91803cc9eaab3c5a29783cc4478b3c7b429a3ca69d5a3c4f4ea03c92c2a63c4e698f3c5ac6a33cb71a733c9ef4a03c8717a63c45388c3c3511603c61b5a33c1f89913c4c2a893cd2428f3cc3f86f3c4c31a63cd0a9993ceb6a9e3c01319c3c463e8b3ce84f8a3c92e5a23c3689993c646e923ca660933ca2f0853cb22e893cdd52903cbc0c8d3c269a833cba2e803cb9819a3cb24e983cbaf89f3cab28a63ccc2b843cddac883cecdda33ccdc7513cc7e4823c97505b3c63a2b03cb285c03c0707443d46cca33cb5e49d3c3739923ccf8baa3c5fa7773c8db68a3c4727a53c7cae873cbea0843c25437b3ce118a23c2a768c3cde31b03c13f9913c5178a43c3ecc9c3caed3893c02a0ae3cb24c753c8585993ce02f9d3cdbeaa13c1d4a8e3cb1a1973ce4f0943cd733a13c13617e3cf41c993cdbbd723c24eda93c098d803c6978713c59288f3c152d883c5b19a93c64fa2b3c76858e3cd086bd3c60744f3ca2bca23c15fa943c1b44393c2b04a73c3fdd923ce09a893c06887d3c6ccba03c9e0eb73c6741993c71ea2f3cdd628f3cebd0a63c937a953c4595893cfd3b913ccbb48b3cf018ac3c4ce7923c739ea83c40e18a3cb7f99e3c57f7a33c46435b3c6db93a3c92d7a63cc299903c1f9c7c3c85fe9e3c4ea8973c9885713cc89e963cd4f73e3c57098c3ccd659b3c2bffa43cd861913c03e6b63c80a1853c3fd2863c03735f3cc1ec953c260d623ce6e0753cbec5913c1d588c3cd9c39f3c85427b3c7897aa3c5a4c863c66228d3c15be613c137c9f3ce0ea9e3cfbab8d3c31b12f3c3766a13cc437863c3f85a83c22e1823c97c5853c2af8943cdc4e8f3c03849c3c47b2883cc70c963c48c6b13cfefdab3c409aab3c8db1a13c01bb993c2661a23c867a863cc54b973c4221103d89da6a3cc5f9923cb2f49a3c1718833dd820573c2336823caca98f3cd8799e3cfe108e3cdb8e7e3ce8fa8f3c8e8da33c0d5d883ca53e9d3c9fb3813cd88c983c47ff9a3c53eab73bf76d933cf736973c6a483d3c8a7e913c8906983ce1309c3c932d9b3c1e0d893c5a0f993cb170723c109d8c3c26f6913cacf6863cd9c5923cb608a13c012e9c3cbe49a03c242c343c2d118e3c1cc3a43cb39ba73cdb3c903c0e184f3cc6f08a3c1835603cd207873c1e2eac3cb31e953c6030a13c9b48723cb586913cabe9973cd610993c7c69813c4fb3583cd656a23c3c068e3c056d953cbab7ba3ce71e9b3cb775923c2205853c17129a3cd69d9e3c5e73823ce2dc923c61d49d3c18ccb13cf8966d3c054e843cc774f43b94f4a63c4510933cfa7fa53c9c5f9f3c7f439e3c8ddc9b3c70cd773c7480cd3b04ef983cdad9903c28bc8e3c2194783cbcb2be3cafad883cbad6a63cbab2663c1b104b3cc14c483cac4e9f3c6f88ac3c7189a43ca7aaa03c8277893c3d8d9f3c21757f3c9db7883ca045703c88ecad3cd2b4ae3cb57e5f3c57faaf3ca755c63b1178a43c7feac53c36cf8a3c7c1a903c71dc8e3ceb9a893c73be793c870c923c7e15903c65cca43c9c34a03c1179793c6727773c536d8c3ca2e2a33cf6c29e3cbdd6803cde30a03cf1a7813c7c7aa93c8f01813c0e9a9a3cf168ac3cc03a883c37fa903c20289f3c92fc8f3cbc574d3c73a8963cc962873c51149f3ca2fa8b3cdaa8763c4733533c245b8c3cd2f2573c5d8a353c2c7c863c7a918d3cf859a13ceb56873cdaa1553c77ea8f3cdaa79d3c9700a53c93bf923c1f3fab3cc22c823cdc49b03c0179a13c21f3a93cf51c353cf6145f3c8ae1913cfbe7823ce6cb873c8cce8f3c34a3933ce8e1493c57a4793cc7dc863c7a0f9d3c8162843cd948913c9003823ca660843c96508e3c8eb7883c52a5903c8e18853c9a67823c0b575c3ced67a93c9b83973c5a7d863cff0c673c41528b3ce002983cc3649f3c7f0b943c9280823c900d853c543f8a3cefa28a3c2e4e8f3c83cb8b3c09208e3c9d834c3ce51b863c33a8a33c25e18f3ce386883cd6e0aa3b2d41743c6d88533c10b8343cd5b9963caebda83cacdfaa3c456d563ca511843c8f20853c7bfeba3cf550b03cce9c7e3c729c883c2002963c2e779d3caca99f3cf98d363c9579553c5b12963cf9e95c3cd2c4983cf5f9983cc077af3ccfc7853c3313863c68014f3cf4d7a63c4bc29b3c3b8e8f3c11e3993c09e39e3c1c499b3cd3a7943cd28ca33c7e7d813cbd5fa03c5c46a13c382d993cbf8a4e3c0b3e713cf42a643c0144833c7627a63ca353a83c49466b3c942ba53c6d108e3c7836893ca316b13c0633923c500d993c8ed3833c5f6ba43c9487923c99ba933c5b798d3c53e8523c7ce8973c2577a53cf007823c10928b3cc29f8f3cd73c9c3ca051a13c68df8d3cf6dea83c8897253cb2db5e3cef9d833c13795b3c54c3663ca7b8923c44d58c3c1668923c8640783c79b98f3cb38b903cd9eea33c3120a63c4b64ac3c0c11c13cc07f733c27bf9f3c0c4a893c71f7493c08c1983cacf79d3c19eb9c3c7de9873cc7c6a13c65b9aa3c5ef3a43c39969d3c9c0ca13c83b4963ce0d2533c94a6843cd583783c1f4aa13c0ad09b3c5512453c54c3903c92e0673c19d09c3caa7a9c3ce407903cfcf1963cec66a03c630c9c3c67c89d3c05fa713c5966903c146e593c9bc1533cd0eff33b76d9a63ca3df8a3c884c553cfe08873cbc26713caf67943cbf7c9e3ce105853c22c8833c7d09bd3cf8e2a03c8ddb7c3c0230963ca5d1873c0f6fa63cabee843c2cd3963c4595af3c14958a3cd5808b3c22d49e3c4f1c7d3cd1d0a63c9ef7873c2c07ad3ca56c873cb14f803c42e0913c3129873c286d933cece0723cdca78d3c84199a3c90cb993c957f923cf7c6843c26f59d3c25106b3c9e82973c787a903c4dd7ab3c72a38a3cc02f653c16daa23c00d9923cd2857b3cda9da83c248b623ce423a23cd858a33c17f89c3c9217853cb7969e3c179e983c3fce943ce502933c4c11a63cc15e853c0cf0b23c6df9a83c66f49d3c28024c3c2d50a13cea73993c2422783ce717a13c3568963c36de913c5090943c08649b3c2df1a23cb30f913cc188533ca697803c6776993c2a309a3cda6fa23c2d2f953c03ae963c3dc49a3c85e08e3c49843b3c1c6f933c5a0d923c07647f3caa91953c5e029d3cb3d5913cff41823cde189b3cc89d903c7780803cb67a923c73398f3ce3fd873c14ca703c69ed943c0b6a923c4a91863ccb177b3cf9d59c3c8a61993c72dd6c3cc066913c45588f3c90508f3caebd963cf52b8f3c506d893c9b6c863cbff19f3c987fa33c3e86aa3c00b3893c5835923c913b9f3cf0299a3cd535843cbe40c03c10fc953ca0cb903c27af8a3cbbaa813cbf919b3c53bb813c9f38953c960f953cd291953c5862673c7a14953ce59f933c8760ae3cd1a3773c8541993c6e1e863cf51f913c6de0a63ca0828a3cfb92903c38f1753cff606b3cbb53783cf2da503cc8d88f3c6eb9963c71cc813c8c2b983c2a26873c46f5683c1a27a53c6bf0913ce9e18b3c25f7723c1f48a93c54e6873cf040903cdca3503ca408963c243ca73cc92e9e3ceede343c4539a93c8b7c543c60859b3cba769a3c60859d3cd62a843c4e60a53c6c998f3cafdd7a3ce6c1993c8b6e8a3c2870b23c7b50683cae9d9c3cf08a1f3d5d54793c74ff843cf7288c3c2a18923cb0dc873c90b0903c4954af3cd091833c879d9a3c2cc59c3c0cbd8b3c829f963cb5ad933c99f4263c5aaf8f3c49cb9c3c81356a3cdcefa73c4ae1973c56c5a33cb1f4a93cef299f3ceaf1a73c65288f3c2530893c5e33b03c1bcd8a3c8c1b553c738f6f3c400ca33c0c119b3c68b0963c751f953c36ea8f3c30e9a63c145aa23c12669d3c16148c3cf96e9b3cbdcf9d3caa04ab3c5028b13c287f993cd888883c62c39c3cbfc4a03c0762943c27dda03c37c2a03c7047913c7ddc8d3c74af973c2db4853c76ac783c5c9ac73bc1798a3cd1ec763caf459d3cdbd58c3cdbb99a3c7f5e833cdf5b813c0f06583c43fc9f3c03b8a63c7f71793bea356f3c396b803cfbcb703c04018f3c677c8b3c8024933cfe8c993c0fe8a33cac35873c1ec8a73cefa3963c2923a53c0db8aa3c5e929f3c8e7d283c1565973c5d65a63c3082823cb7069b3c02db653cec74c13bc958913c9bf3593ccd2a953c39e3953c9a148b3c031a863cfc6a843c41d9763cac00893c9bac963c1ace863c20d6a63c855b863cf3cfa63cb456a33c9a13773c41398f3cd3f0993c5539a53c41dda03c2618a93c72d19b3c7c4a9b3c5ad0673c82ca9c3c28758d3ca8869f3c16b85a3cc3aa643cd593ad3cecf5a43c4517673c9664863cfeed873c71578f3c70487e3cb169ae3cc4d8a43caee8843c4975723c5b3c933c0ff9ad3ccc1f563c347c993c8ae9503cf97d983c1720a13c75b09b3c7e18613c86d46c3cbb0d8f3c53d28f3c1ca09c3cc1dba53ca5538c3c25c5a63cf5039a3c4aee863cd432863bb842b23c581e8d3c82777a3cc8de413c5d7c903ca5e2713cfab98f3c152e9a3cfbec9e3c3a9ba63c5b09ab3c86229b3c8a96a33cc3a68a3c3e66593c7937903ce619a33cc058a43cd4b1a13c5508883c7b34a13cd8f4b13c261b813c058f8a3c4647aa3cbdfb6d3c7469963c4572a53c36c3433c9af2b03c76e38b3c36969e3c1ee88f3c2795823c88c8a33c9c218a3cba13a43c6dd7873c4790843c33149e3ce3dc823ce718763c45052b3c09f6963c343c823cf1c1943cca54a13c2618a83c33406d3c109a833cc25f883cb82aae3c27cb723c2bd6993cdb1d9f3c3968a33c1746a03c8b77993cfc04a33ccd48923c3edaa23c58bb913ca96e913c5f08643c7f06933c0080933cc9a5953cb6fa663c10d5b23cb8b2a43c0ca1973cde63993c66861e3d0ed99a3c9b31973cc580673c56a1b03cc3deac3c2414763cf20e6c3c100b833c6e2ca03cd3df7f3cf1d38d3c1b8f9e3ccf9c5c3caf1ab03c0dce453c33c5a33cba0f5c3c6c7ea03cb5859d3cb411853c993a8f3c4b74a73c7a73863cbdcd9b3c8dc6873cf5cd8e3c9d46fb3bb9ef9b3ce197a43c0871943c0bd3a33cf74f533c23e3933cb139903c6ca1933cf9328f3ccda78d3c3e6e8e3cfed08e3c50a7633c9069933cafe98a3cdc5c9d3cfff18a3c2519893ca17d873c4fa0993c39bb973cc81d893c8a968d3c2c08a33cbf188d3c7d5c9d3c75c0933c6381983cf176943cd744ac3cc011a23ce7ff6e3cceea903cccce963c6de3943c1b4c6b3ca27d903c34a59e3c0b14973cda69833c07cd823c3d678c3c44a7b23c8265993cc14a993c2c91a53c0145813c3c6cab3ce400293c3bc5813c867c853c46768e3ca1bda73c5bb3973c94e4943c169a8f3c79a1973c967e913c4f4ca33cc1db8f3c9fe8893cb647993c351a183c67a98c3cd685933cbd1aa93caecd923c83fe733c0298af3ca0fe8b3c9387a53c1e8a953cee3b633c57424f3ce470873c1779373c79cc733c59048f3bd0398c3ce135863c9cd3a33c4b1b9b3c8425903c8a91b63cfc7a973c3282913c39010b3c1b1e9b3cecdf8b3cb2fa883c1331693c3e36a03c479f9c3cf943873cda26bd3c96549f3cf7ff853c800a953cc6790f3c8bc18a3ce47c923c06af9a3c156c833c8efc983cec838f3c78eb963ca4f9a13c6ece993c91aaa13c931a8d3c5365763c53c9e63bb2ce9f3cbc26973ca5ce8e3c306e573cf649693c95087e3cc616923cc971a43cadd9973c31eda83c5fbdb53cfcc7a43cee5f933c2b8ca73ca950293ce3dc2a3ca2af583c1b00893c4f088f3c6c6e783c00ea963c296a9c3c140ea13c25d2a13c85fd803cac34ac3c2f82a63cd6949d3c9eee933ca4b9953ce9a7923c25879a3cf4389c3ce67b823cd15a793cc13d903ca33f873caba1993ce5aa873c24979e3ce32b853cad7e913cb6ba833c256d923c7a2a923c4fa3ad3c859f963c4785963c68ff993cb3f9863cdff0603c1e3f9d3c42249a3c4fd97b3cf33a7c3ce373a03c9cf0a43cf8fb873c32cd993cdaa48b3c3b24913c9ab6a43ca405613c9375943c2acb6a3c8eb2963c2f06043c62fb913ce00ca13c88c7913c3d839b3ca24a8d3c65257a3cba54963c1585923c1aef943c0b029c3c49fc913c2138823cdcd5903c7d6a853c4b3e6e3c41a3933cc59fbc3c5ea9a33cb44ca43c02a7a93ca9d79f3ca5489d3c60617c3c2f60863c2b639f3cfb84aa3ce3cb7c3c9d1a853ce1ea8c3c01a18f3caa79813cb0d5a23cdad8b33cac39dd3ca8ec8c3c5008233bb5928c3cffe0a03c3610a23cfa09993c8da99e3cb1639d3c176a8b3c3d1f993c0694703c6384973ce507a53c7dc68e3c029a9d3c0d15e43b4783a63c389f893c39b66f3ca6b37e3c4cfb8f3c13259a3c2b299d3c4552933ca6eb1c3d828c7a3cefa7983c5a919b3c04cb8c3c7837613c6b13513ca00e973c20b16f3c5d73ab3c45dcad3c2347813c71e46d3cd9ee993c3d9ba13cefbe693c9906903c70109c3c05758c3cd389973c26728b3c04b1bf3c1f99763cda3b923c4a68943c497ba73c102f893cdeab973cda08383c5d389f3cd8728f3cc2189b3cde28ac3c60eca93c3f7b9e3c539e923ca1ce923bafa17a3ce2a09c3c20a1863c935b873cf3269a3c4d878d3c4d64a13c560f9a3cf69a2c3c221c983c187d9a3cbaf8a13c9dae6c3c5bbc6a3cd54b8a3c4200953cb54d9d3c7d37903c73fe8f3cd23fa33c1a85943c9a6fb23c326f8f3c6b3f8f3cd8058c3c2768a53cc4f8a63c5048753c2330993c61a4a53cc7ad843c09f7af3c4745093ca993873c1fb6b33cf2a3983cb48e963c88e19b3ccf44b03cf70d623c738d9a3c9b6e733c2c268a3c13e0823c2e9fd83cdd2b963c213fbc3c99579a3cf59a9a3c68cd993c409b7d3c8f227a3c97fb943bc932a83c70445c3c4040a03c515c863c69015f3c94b00e3c5494a73c944dab3cd2d4a63c003c573cd1558c3c8161a23c851ca43c8b7a913c712e8e3c17d0813c9b14913cca4e863c326e9e3cb8c0a63c79269a3cd24b8f3ca6bf9f3c6722823c63fbc63c57d0a33ce657933c5e2d8c3cde554a3c553d8f3c05eaa13c6df8ac3cac3c8e3cb655973c1591a03cc0258f3c2423aa3c0aef983c58229c3c01b54c3c7c10823c74c4763c519a6c3c9e52703c8f77a73c6af7a83cd376943c0fb9683ce5fe993c5337753cf7b2a73c57f4993c7a419a3cd72e903c87ca6f3cad4d8d3c6d4cac3cbd9f803cd19ba03c8f02953c4e1aa13c6b5f903c59bafa3b3ffba73ca8898b3c5c708a3c463a8b3cd101973c415a8f3cc85c9e3cb2619a3c29b2883c470c993cab179d3c0c2c913c47b1943c22139e3c28e1703cf62c9c3c1316903cf0bd783c10187b3cb489a43c87e2623cc34bab3c3801753ce866983ca88f993c1019883cfce89e3c09779a3c28cf3a3c0458b83c0896843c2441aa3c404e703c9a7b9f3c8a41a73c2ba83b3c7fbb933c2aa49f3c8e97a53c27c7743c68f36c3c3d2da73cf04b4e3c1ca78f3c6ef6923cfc7aa13cfced993c68c1953c47fc8d3c4aad773cd306813c71a2a13cd1f78e3c82b58b3caf03a23cba68ae3c21da9a3cca60933c48b6943c639e7e3c76ae8b3cb0aa8c3cc7e0993c3937b03c94429f3cf4f2a93ccde47a3cf526843c0cd39e3c6275903c4800873c5997993c6cc7993cf1397a3cecc2723c3bf7843c257fae3c64aba53cc49c533caaf7843c61ef723cc1d78e3ca84d7f3cb32c853ce3357c3cd0ea5e3cc729753c051a8c3c00e47f3ca16c863c60dd953c74e6a53c961a903c6e94963ca317893c27c87c3c9185b63c81f1a03c09a98b3c14a4a63cae76933cbf55883cbbf1373c8918743ca0b49c3caf298e3c4dce3b3c7208973cb87c903c868ca63c28c7973c599fa83c22228f3c130b003ccdcb983ca7158a3c55bf903cfe5ba73cf9380a3c46ac8f3c7193b43b5c5b943cf861ad3ce0d5943c12199c3cad64a03c63609a3ca9d48b3c50d8893c7514813c414b983cb9589c3c9c90b33cc112ac3c45b4803c58858a3c15ab523c3f898f3c45b6a53cb4ce9b3c95116d3c4b4ba03ccf217a3c82f8783c34f9ac3c39fbaa3cc332933c35a6973cd6280d3c7d94913c1058a03cb1748f3ce7b3913c17609d3c7c5f9f3cf3808b3cbda3a23c368b983c02718a3c25ae9b3c7bbb9f3caf27473cc9938b3c7a5bab3c10ba9d3c91ad933c0b21913c68ee8b3c6083883c4875873c66282e3cb3e59c3c1d16763c5a81953c45cfa53c10ef9e3c9590243c0032b33cb638843c5c467a3cccc6b33cd0268a3c9cec9e3c52fd673ca7dd8c3c37937f3c1657ac3cc5145f3c9a8c7a3ce36a8d3c695aa03c4c3c903c9e66a03c6664753c046c8a3c8a6c913c0dc9ab3cd6217f3c086c9d3c2fdb913cc636a73ca555853cf0b9743c6e16ec3bb968a03c90c2ab3c06aca13c5da08d3c28c78f3cb0848d3c7fa6933cb2958a3c49b6903cafd0973cf6a3a23c1c23933cc7b5a93c1e32843c770b9a3cfc63973c6c55363cec6a9c3c6b2e923ce2c6603c0636ab3cf7409a3cf6129b3cc2b5793c062f813c6505af3c41bb8f3ca11c7e3c650ba23cc3c1a23c298f9d3c6963a13c8f419d3c9a088a3cb4139d3cbf0a8f3c18448b3c76f5933c05e0983caa6d863c93eca63c84e2a53cc8c59a3ca5bf8d3ca952973c8897b33ceb25733c2f7b9c3c8feb963c2d13a03c8373ae3c1561913c4ca8a33c228ba03c51c6c23c6afea63c9ee4913ca7b2843c9b31823cad49913cae2a603c97a7933c2db6a73c6dbfa23cb5e0ac3c0c4c963c3aff9d3c70cd813cf0b19e3cef86a13c0c34aa3c3d4b943ca9db8b3ccbe99b3ccce4a13c71f8833ca3dc9a3c9712a03c46a7a83c69b48a3cb3dd813ce9b5993c9a0f913cbb9c7c3c1c078b3cdb1e5e3c9a95ad3c1fe0853ca678853ca579b43c2ffe9c3c24d5b73caa698f3c0c33a63c83a5753c8de88e3c0390933caaef913cf600a53c9cadac3c4b4ca63c40269f3c8ca05a3c0d319e3c8e79f53bf1cd973c33e9483c8dd5503c6875ad3c2cd0383c1bf57f3c90169d3c32179b3c6d1b703c1115633c89ca9c3c57fa793cd5d98f3c1b45b13c8ae6943c4d3a493c3c887c3c23ee9b3cd33aa13c689f793cf339423c8ac4923cd7c4963c6b49983ca85b9a3c6905a43c47e9933c45c8bc3c21a2893ce7a5b83c6b5b903cfe526b3ce654a23cb1a89c3cc8a14f3c1f9aa63c9293873cb62aad3c9b046a3c48f96b3c39005a3cddc6a33c23d6ab3c686d9c3c6d9dab3caf9c953c81ac8e3c893c8c3c7bb0923cdce5923c58839c3c4b93973c1c959f3ca842a43c0cbc923c4cd1a43cce50a03c7196b13c36b58f3c8284893cf0a8a23c713c9c3c46e98e3c7bc5e23b2e1a8d3c0a12923cb33e873c841aa13c380e703c5005a43cf38baa3c66d99a3cd2fe9b3c9e1c233cafd7933c0d97a53c9232703c8c438d3ce852a43c3551a73cfcbe8e3c4efaae3cb604ae3c4f01a43c6292993c22c9913cf58d813c007aa63c23ada23c08aeae3cadc2983cd4367c3cf695923c3e424b3cad95863cc06e8b3c9649a13cd02ba13c9119893c83ca863c19a0a33c988c6c3ce6ca773cd1478d3cbfab7c3c5643983c257fb83c98e1a23c6e40793cc8a44b3cc156883c828c953c7b04803ceafc983c2164893c6129913cd919963cc5eba73c227c3e3cc913a33c4bb8933c79eeb43c57f57d3c44a39b3c33699b3c50df9f3c43f2633cdd16a03cf206923cbfd9873c4a93983c29d9903ca7f8993ca68d9c3c3cfb6c3cf1e18b3c58c99a3cf7f2993c4fa49a3c44ff823c5882963cbccba63cbb7e803c6b1f963cee709a3c98fb903c583e9a3cc11c8d3cd0fa983c28d1593c4deb823cd3238a3c5ac9a23c7791a33c161da73cbebca33cb358993cf69a913c07918c3cc707903cb1faa63c54e3903c8daa903c8bcb9f3cbce3703ce1bb803ce40b9f3c9820913c5d16ac3c54bb893c181da63ccad8973c76765f3cadba9d3c1db0a43c1857833c8cb9d53b7fed8d3c0bc98d3cd771753ce356983cf6fca33cddb2b23ce9fc723c6ec0833c2d4e953c3fa0873c7ccd993c2ab89d3c52eb303c14ae4f3c2fdd7d3cf936a73c11729e3c3390973c1c6f833b84899b3c0e786c3cf5d6a43c82d9a93c0a2d7b3c1980903c6097a33cb8cd803c8268ac3cd0a29e3c818a933c1f399e3c226eaf3c4ad6a73c5f62ac3c8dc18f3c2b0d9f3c6c83753c6bbe7e3cfb0f893ce1c37a3cb68e823cf6f89f3ce920a33c08b2a43c88c1993ca076a33ce5d47f3cdf3e863c20daaf3cf4cda33c841a8b3cbca3883c9d3ab33c984a9e3cbee8a23cb9499b3c33b2933cca8c833c711e573ce416883c3cb49f3c7d61963c81f0593c9911863cd76e763cd188493c28699c3c2fbaac3caf9f663c542a953c14ea8f3c1d89563c313f2b3c6e0d8e3c16fb923c039e993ce129123c7dbf543ca0bca33c8d98953c8bb5953c31056d3c14a39a3c2a9bd83cc581943c2fd89f3c41a5913c",
        "values": [
          1015999927,
          1016239810,
          1016977995,
          1021383698,
          1012184381,
          1016432691,
          1017662516,
          1016168002,
          1017395554,
          1016678130,
          1016437172,
          1016846488,
          1013717635,
          1015592627,
          1017099221,
          1016541968,
          1016811033,
          1016966523,
          1017649885,
          1013566599,
          1015651616,
          1015841432,
          1017740779,
          1018139694,
          1016535477,
          1015366852,
          1016609888,
          1015285159,
          1016712933,
          1016679912,
          1017316578,
          1017763335,
          1015724684,
          1016135317,
          1015370511,
          1015254258,
          1013929461,
          1016774093,
          1014386003,
          1016182140,
          1017960490,
          1015350224,
          1016567040,
          1017876697,
          1016045104,
          1015897299,
          1016253060,
          1016663061,
          1017976546,
          1017017311,
          1016916069,
          1018094594,
          1017078455,
          1014146657,
          1013992741,
          1016692807,
          1014325640,
          1015830081,
          1017208458,
          1017591536,
          1015702193,
          1013869498,
          1016263580,
          1018446514,
          1017183943,
          1015236073,
          1015011692,
          1015647345,
          1010704265,
          1013796833,
          1014107612,
          1015914448,
          1017784638,
          1015141543,
          1018026120,
          1010264390,
          1016105158,
          1016115049,
          1016534630,
          1013315758,
          1015203744,
          1017205516,
          1015598552,
          1017171492,
          1016303567,
          1014720588,
          1017930833,
          1012534981,
          1016561971,
          1014092657,
          1016680904,
          1015851730,
          1016856046,
          1017281675,
          1007912838,
          1014147175,
          1016915043,
          1016699402,
          1015964280,
          1014765618,
          1011070791,
          1017255553,
          1013857519,
          1016827380,
          1016632058,
          1015463173,
          1016717535,
          1018164532,
          1016563370,
          1016796614,
          1028463824,
          1017162169,
          1016544374,
          1014235747,
          1016930707,
          1016865488,
          1016906998,
          1015351304,
          1017878670,
          1015740120,
          1018380565,
          1016709930,
          1017542641,
          1016606481,
          1016532907,
          1017085076,
          1008825773,
          1015278309,
          1009768446,
          1008788816,
          1016921920,
          1016336142,
          1015736159,
          1017560404,
          1015435537,
          1015404542,
          1016489891,
          1015646516,
          1015075065,
          1015320992,
          1014722268,
          1016729459,
          1017328126,
          1016163674,
          1016957111,
          1015541568,
          1017201430,
          1016068131,
          1008068545,
          1010156192,
          1015532547,
          1017744235,
          996229840,
          1014317967,
          1016985533,
          1018525818,
          1016876110,
          1016762496,
          1018455515,
          1014294021,
          1017307428,
          1017698678,
          1015640149,
          1016058397,
          1015807177,
          1015491702,
          1013900327,
          1015591803,
          1016827095,
          1016827667,
          1015478328,
          1015363703,
          1015805890,
          1016545080,
          1004084960,
          1016040352,
          1016772974,
          1016228329,
          1016944623,
          1017151627,
          1015934319,
          1017291177,
          1015051161,
          1017423208,
          1013583928,
          1014558532,
          1015188598,
          1015256350,
          1019236082,
          1012741491,
          1017101787,
          1017355408,
          1014594149,
          1017147136,
          1016724460,
          1017826853,
          1017207540,
          1016870864,
          1018417492,
          1016005899,
          1019045617,
          1010141671,
          1012378780,
          1016603948,
          1015740609,
          1016275511,
          1018034133,
          1016726527,
          1013827893,
          1014897498,
          1017186870,
          1016432547,
          1017186307,
          1015249675,
          1016671085,
          1016715283,
          1015742389,
          1017396650,
          1011355786,
          1016567846,
          1016692424,
          1018195703,
          1014493089,
          1014026343,
          1015196974,
          1015545859,
          1015095090,
          1015593106,
          1012414029,
          1015702036,
          1016612089,
          1014360827,
          1016074956,
          1018527896,
          1014238275,
          1015161610,
          1019470918,
          1014532304,
          1017924482,
          1015709816,
          1018299375,
          1016598426,
          1017556400,
          1016400461,
          1015354430,
          1017942824,
          1016686412,
          1016155626,
          1016034095,
          1007606775,
          1016171273,
          1016629728,
          1016637682,
          1017630601,
          1016495839,
          1025098162,
          1017111799,
          1016525170,
          1016062086,
          1015111895,
          1016519958,
          1014277563,
          1016483539,
          1013919310,
          1016731649,
          1015651363,
          1016895907,
          1018430103,
          1015223134,
          1015854840,
          1017182703,
          1012866608,
          1015362835,
          1016508774,
          1015517317,
          1016534505,
          1018261287,
          1016425085,
          1014558710,
          1016514896,
          1017731589,
          1016027805,
          1017541402,
          1017930720,
          1017969145,
          997346143,
          1018149820,
          1013988326,
          1015862212,
          1015692623,
          1016291592,
          1015782668,
          1017536514,
          1015973032,
          1016198628,
          1014373310,
          1015678380,
          1012425284,
          1017719942,
          1015405846,
          1017390736,
          1012639203,
          1015897982,
          1016678166,
          1017847936,
          1014630509,
          1017912057,
          1017371771,
          1017697383,
          1017467597,
          1016012687,
          1017723945,
          1016395307,
          1016642280,
          1017153539,
          1014334695,
          1016530724,
          1016165183,
          1009756393,
          1016381468,
          1017159688,
          1016046022,
          1015741760,
          1014373739,
          1016755643,
          1017141183,
          1016511396,
          1016511447,
          1016787665,
          1016320233,
          1013094937,
          1012445871,
          1015830048,
          1017647411,
          1016870293,
          1017533080,
          1017028717,
          1015427955,
          1016418642,
          1015525775,
          1016307887,
          1015908266,
          1016352161,
          1014377370,
          1017494423,
          1015471440,
          1016051166,
          1015789725,
          1018133279,
          1016113865,
          1015521357,
          1013498177,
          1016215650,
          1016200083,
          1018638107,
          1017008337,
          1016067992,
          1014711904,
          1017451351,
          1017706487,
          1017872811,
          1018434744,
          1015370892,
          1016122641,
          1016492478,
          1015590818,
          1016492654,
          1018561071,
          1017793457,
          1016015938,
          1017552025,
          1013652973,
          1015835947,
          1007264579,
          1013612372,
          1019027933,
          1013344850,
          1015563245,
          1017034531,
          1008581332,
          1017847850,
          1016887388,
          1016269528,
          1015517687,
          1016673099,
          1016790715,
          1015683101,
          1016836020,
          1016433296,
          1016220753,
          1016646184,
          1017489445,
          1016054419,
          1015633499,
          1017298212,
          1015707391,
          1015530182,
          1017113098,
          1017717733,
          1014845945,
          1016646808,
          1015046915,
          1015416569,
          1016365895,
          1015030451,
          1016884960,
          1016656990,
          1016915710,
          1015985218,
          1016733427,
          1017621365,
          1017019198,
          1017887013,
          1017968089,
          1015295949,
          1016529902,
          1016668499,
          1025867020,
          1016211077,
          1016477628,
          1013962899,
          1016523463,
          1017933398,
          1017055710,
          1013636212,
          1015717880,
          1015488101,
          1011808893,
          1017324737,
          1016748357,
          1016472601,
          1016737831,
          1016161548,
          1016337703,
          1014945136,
          1016869672,
          1017476632,
          1014780603,
          1015893077,
          1014040991,
          1016508253,
          1014712903,
          1017333366,
          1016188455,
          1013533207,
          1016134300,
          1012928657,
          1016559790,
          1017339428,
          1015814955,
          1018457610,
          1016825165,
          1018134584,
          1016781058,
          1016425705,
          1018324328,
          1015245399,
          1016876002,
          1015870374,
          1017106020,
          1017513993,
          1016678559,
          1014472781,
          1015985580,
          1016394921,
          1017075304,
          1013982514,
          1014326680,
          1016568224,
          1011747828,
          997429282,
          1018504503,
          1015458201,
          1015205164,
          1017354511,
          1015955602,
          1013007110,
          1015420065,
          1015551984,
          1016679229,
          1016413427,
          1017048148,
          1011912898,
          1017716398,
          1017644828,
          1015255265,
          1017259586,
          1015457448,
          1015060350,
          1017267381,
          1017715110,
          1016326316,
          1017323843,
          1012861009,
          1008023026,
          1016291637,
          1015910024,
          1016581688,
          1017456453,
          1017593743,
          1016473415,
          1015515948,
          1017844911,
          1015317203,
          1016270106,
          1017068079,
          1016425854,
          1018643767,
          1015746297,
          1015418031,
          1015790227,
          1014410402,
          1014048328,
          1016422767,
          1014534332,
          994250558,
          1016948235,
          1016972632,
          1014093650,
          1016663240,
          1018594345,
          1016663434,
          1015716166,
          1016494003,
          1015142102,
          1027322370,
          1016171892,
          1018620996,
          1015202305,
          1015365327,
          1012174507,
          1016263624,
          1019571450,
          1016276743,
          1016181640,
          1018329134,
          1011484511,
          1015436490,
          1016418158,
          1014914215,
          1013666256,
          1016414709,
          1016328497,
          1017530564,
          1017010873,
          1016037397,
          1017030664,
          1016406591,
          1016378881,
          1017861966,
          1024963381,
          1014340030,
          1015447496,
          1016429477,
          1015405802,
          1016769642,
          1016020183,
          1017343335,
          1015087401,
          1014268303,
          1015849634,
          1015646144,
          1016289253,
          1007168823,
          1015648106,
          1015819894,
          1017646054,
          1013517324,
          1015046495,
          1015679957,
          1017618215,
          1015635548,
          1016722011,
          1015370734,
          1016287455,
          1019201497,
          1015125212,
          1016351054,
          1015263943,
          1017967365,
          1015316954,
          1016489034,
          1015853917,
          1014918738,
          1011351390,
          1016051114,
          1014486141,
          1017738664,
          1015911058,
          1015499201,
          1016696732,
          1017000499,
          1016278932,
          1017500314,
          1015463264,
          1017188371,
          1013843952,
          1017608515,
          1017116459,
          1018241341,
          1003338206,
          1015328445,
          1015650790,
          1016749379,
          1016356754,
          1017543204,
          1017297761,
          1016838877,
          1011997702,
          1016494176,
          1018202846,
          1017077516,
          1017278113,
          1017768122,
          1018160691,
          1017523671,
          1014939073,
          1018719874,
          1015521650,
          1017876318,
          1016596751,
          1015695016,
          1008133367,
          1014831583,
          1015648194,
          1013064503,
          1015042334,
          1016361901,
          1015652883,
          1016105886,
          1018952264,
          1015733921,
          1018093344,
          1015872547,
          1018450115,
          1011614496,
          1015179857,
          1015932539,
          1015090632,
          1014778278,
          1016708564,
          1016427592,
          1015637734,
          1016137430,
          1016668816,
          1016701737,
          1015462148,
          1016167294,
          1017493113,
          1016281539,
          1013649507,
          1017861006,
          1016126970,
          1015632966,
          1016209477,
          1012752213,
          1013154516,
          1014559236,
          1016977150,
          1016045522,
          1015172804,
          1015240933,
          1016980383,
          1016018333,
          1015760494,
          1017646714,
          1017121547,
          1016720010,
          1015382427,
          1016542535,
          1015548978,
          1017439313,
          1014453470,
          1015181322,
          1017004847,
          1016129294,
          1016779326,
          1016977352,
          1017040665,
          1015664970,
          1013604322,
          1017269307,
          1016588462,
          1016668422,
          1015710855,
          1016515738,
          1013239005,
          1015644922,
          1015938833,
          1016361718,
          1017079371,
          1017170543,
          1017376303,
          1017967385,
          1017009166,
          1008584169,
          1017616907,
          1016417445,
          1016804899,
          1017414175,
          1027953664,
          1015440933,
          1018533706,
          1015058859,
          1017899721,
          1014507866,
          1015760836,
          1016742523,
          1012571558,
          1017138767,
          1017561746,
          1016031566,
          1017366106,
          1014176439,
          1017181342,
          1017517959,
          1015822405,
          1012928821,
          1017361761,
          1016170783,
          1015622220,
          1016021714,
          1013971139,
          1017524556,
          1016703440,
          1017015019,
          1016869121,
          1015758406,
          1015697384,
          1017308562,
          1016695094,
          1016229476,
          1016291494,
          1015410850,
          1015623346,
          1016091357,
          1015876796,
          1015257638,
          1015033530,
          1016758713,
          1016614578,
          1017116858,
          1017522347,
          1015294924,
          1015590109,
          1017372140,
          1011992525,
          1015211207,
          1012617367,
          1018208867,
          1019250098,
          1027868423,
          1017367622,
          1016980661,
          1016215863,
          1017809871,
          1014474591,
          1015723661,
          1017456455,
          1015524988,
          1015324862,
          1014711077,
          1017256161,
          1015838250,
          1018180062,
          1016199443,
          1017411665,
          1016908862,
          1015665582,
          1018077186,
          1014320306,
          1016694149,
          1016934368,
          1017244379,
          1015958045,
          1016570289,
          1016393956,
          1017197527,
          1014915347,
          1016667380,
          1014152667,
          1017769252,
          1015057673,
          1014069353,
          1016014937,
          1015557397,
          1017715035,
          1009515108,
          1015973238,
          1019053776,
          1011840096,
          1017298082,
          1016396309,
          1010385947,
          1017578539,
          1016257855,
          1015651040,
          1014859782,
          1017170796,
          1018629790,
          1016676711,
          1009773169,
          1016029917,
          1017565419,
          1016429203,
          1015649605,
          1016151037,
          1015788747,
          1017911536,
          1016260428,
          1017683571,
          1015734592,
          1017051575,
          1017378647,
          1012613958,
          1010481517,
          1017567122,
          1016109506,
          1014799391,
          1017052805,
          1016571982,
          1014072728,
          1016504008,
          1010759636,
          1015810391,
          1016817101,
          1017446187,
          1016160728,
          1018619395,
          1015390592,
          1015468607,
          1012888323,
          1016458433,
          1013058854,
          1014358246,
          1016186302,
          1015830557,
          1017103321,
          1014710917,
          1017812856,
          1015434330,
          1015882342,
          1013038613,
          1017084947,
          1017047776,
          1015917563,
          1009758513,
          1017210423,
          1015429060,
          1017677119,
          1015210274,
          1015399831,
          1016395818,
          1016024796,
          1016890371,
          1015591495,
          1016466631,
          1018283592,
          1017904638,
          1017879104,
          1017229709,
          1016707841,
          1017274662,
          1015446150,
          1016548293,
          1024467266,
          1013635721,
          1016265157,
          1016788146,
          1032001559,
          1012343000,
          1015166499,
          1016048044,
          1017018840,
          1015943422,
          1014927067,
          1016068840,
          1017351566,
          1015569677,
          1016938149,
          1015133087,
          1016630488,
          1016790855,
          1001908819,
          1016294903,
          1016542967,
          1010649194,
          1016168074,
          1016596105,
          1016869089,
          1016802707,
          1015614750,
          1016663898,
          1014132913,
          1015848208,
          1016198694,
          1015477932,
          1016251865,
          1017186486,
          1016868353,
          1017137598,
          1010052132,
          1015943469,
          1017430812,
          1017617331,
          1016085723,
          1011816462,
          1015738566,
          1012938008,
          1015482322,
          1017916958,
          1016405683,
          1017196640,
          1014122651,
          1016170165,
          1016588715,
          1016664278,
          1015114108,
          1012446031,
          1017272022,
          1015940668,
          1016425733,
          1018869690,
          1016798951,
          1016231351,
          1015350562,
          1016730135,
          1017028054,
          1015182174,
          1016257762,
          1016976481,
          1018285080,
          1013815032,
          1015303685,
          1005876423,
          1017574548,
          1016270917,
          1017479162,
          1017077660,
          1017004927,
          1016847501,
          1014484336,
          1003323508,
          1016655620,
          1016125914,
          1015987240,
          1014535201,
          1019130556,
          1015590319,
          1017566906,
          1013363386,
          1011552283,
          1011371201,
          1017073324,
          1017940079,
          1017416049,
          1017162407,
          1015641986,
          1017089341,
          1014986017,
          1015592861,
          1013990816,
          1018031240,
          1018082514,
          1012891317,
          1018165847,
          1002853799,
          1017411601,
          1019603583,
          1015729974,
          1016076924,
          1015995505,
          1015651051,
          1014611571,
          1016204423,
          1016075646,
          1017433189,
          1017132188,
          1014593809,
          1014441831,
          1015835987,
          1017373346,
          1017037558,
          1015076541,
          1017131230,
          1015130097,
          1017739900,
          1015087503,
          1016764942,
          1017932017,
          1015560896,
          1016134199,
          1017063456,
          1016069266,
          1011701692,
          1016506483,
          1015505609,
          1017058385,
          1015806626,
          1014409434,
          1012085575,
          1015831332,
          1012396754,
          1010141789,
          1015446572,
          1015910778,
          1017207288,
          1015502571,
          1012244954,
          1016064631,
          1016965082,
          1017446551,
          1016250259,
          1017855775,
          1015164098,
          1018186204,
          1017215233,
          1017770785,
          1010113781,
          1012864246,
          1016193418,
          1015212027,
          1015532518,
          1016057484,
          1016308532,
          1011474920,
          1014604887,
          1015471303,
          1016926074,
          1015308929,
          1016154329,
          1015153552,
          1015308454,
          1015959702,
          1015592846,
          1016112466,
          1015355534,
          1015179162,
          1012684555,
          1017735149,
          1016562587,
          1015446874,
          1013386495,
          1015763521,
          1016595168,
          1017078979,
          1016335231,
          1015185554,
          1015352720,
          1015693140,
          1015718639,
          1016024622,
          1015794563,
          1015947273,
          1011647389,
          1015421925,
          1017358387,
          1016062245,
          1015580387,
          1001054422,
          1014251821,
          1012107373,
          1010087952,
          1016510933,
          1017691566,
          1017831340,
          1012297029,
          1015288229,
          1015357583,
          1018887803,
          1018188021,
          1014930638,
          1015585906,
          1016463904,
          1016952622,
          1017096620,
          1010208249,
          1012234645,
          1016468059,
          1012722169,
          1016644818,
          1016658421,
          1018132416,
          1015400399,
          1015419699,
          1011810664,
          1017567220,
          1016840779,
          1016041019,
          1016718097,
          1017045769,
          1016809756,
          1016375251,
          1017351378,
          1015119230,
          1017143229,
          1017202268,
          1016671544,
          1011780287,
          1014054411,
          1013197556,
          1015235585,
          1017522038,
          1017664419,
          1013663305,
          1017457556,
          1015943277,
          1015625336,
          1018238627,
          1016214278,
          1016663376,
          1015272334,
          1017408351,
          1016235924,
          1016314521,
          1015904603,
          1012066387,
          1016588412,
          1017476901,
          1015154672,
          1015779856,
          1016045506,
          1016872151,
          1017205152,
          1015930728,
          1017700086,
          1009096584,
          1012849586,
          1015258607,
          1012627731,
          1013367636,
          1016248487,
          1015862596,
          1016227862,
          1014513798,
          1016052089,
          1016105907,
          1017376473,
          1017520177,
          1017930827,
          1019285772,
          1014202304,
          1017102119,
          1015630348,
          1011480433,
          1016643848,
          1016985516,
          1016916761,
          1015540093,
          1017235143,
          1017821541,
          1017443166,
          1016960569,
          1017187484,
          1016509571,
          1012126432,
          1015326356,
          1014531029,
          1017203231,
          1016844298,
          1011159637,
          1016120148,
          1013440658,
          1016909849,
          1016887978,
          1016072164,
          1016525308,
          1017145068,
          1016859747,
          1016973415,
          1014102533,
          1016096345,
          1012493844,
          1012122011,
          1005842384,
          1017567606,
          1015734179,
          1012223112,
          1015482622,
          1014048444,
          1016358831,
          1017019583,
          1015350753,
          1015269410,
          1019021693,
          1017176824,
          1014815629,
          1016475650,
          1015533989,
          1017540367,
          1015344811,
          1016517420,
          1018139973,
          1015715092,
          1015775445,
          1017041954,
          1014832207,
          1017565393,
          1015543710,
          1017972524,
          1015508133,
          1015041969,
          1016193090,
          1015490865,
          1016294696,
          1014161644,
          1015916508,
          1016732036,
          1016712080,
          1016233877,
          1015334647,
          1016984870,
          1013649445,
          1016562334,
          1016101496,
          1017894733,
          1015718770,
          1013264320,
          1017305622,
          1016256768,
          1014728146,
          1017683418,
          1013091108,
          1017258980,
          1017338072,
          1016920087,
          1015355282,
          1017026231,
          1016634903,
          1016385087,
          1016267493,
          1017516364,
          1015373505,
          1018359820,
          1017706861,
          1016984678,
          1011614248,
          1017204781,
          1016689642,
          1014506020,
          1017190375,
          1016490037,
          1016192566,
          1016369232,
          1016816648,
          1017311533,
          1016139699,
          1012107457,
          1015060390,
          1016690279,
          1016737834,
          1017278426,
          1016409901,
          1016507907,
          1016775741,
          1015996549,
          1010533449,
          1016295196,
          1016204634,
          1014981639,
          1016435114,
          1016922718,
          1016190387,
          1015169535,
          1016797406,
          1016110536,
          1015054455,
          1016232630,
          1016019315,
          1015545315,
          1014024724,
          1016393065,
          1016228363,
          1015451978,
          1014699979,
          1016911353,
          1016684938,
          1013767538,
          1016161984,
          1016027205,
          1016025232,
          1016511918,
          1016015861,
          1015639376,
          1015442587,
          1017115071,
          1017347992,
          1017808446,
          1015657216,
          1016214872,
          1017068433,
          1016736240,
          1015297493,
          1019232446,
          1016462352,
          1016122272,
          1015721767,
          1015130811,
          1016828351,
          1015135059,
          1016412319,
          1016401814,
          1016435154,
          1013408344,
          1016403066,
          1016307685,
          1018060935,
          1014473681,
          1016676741,
          1015422574,
          1016143861,
          1017569389,
          1015710368,
          1016107771,
          1014362424,
          1013670143,
          1014518715,
          1011931890,
          1016060104,
          1016510830,
          1015139441,
          1016605580,
          1015490090,
          1013511494,
          1017456410,
          1016197227,
          1015800297,
          1014167333,
          1017727007,
          1015539284,
          1016086768,
          1011917788,
          1016465572,
          1017592868,
          1016999625,
          1010097902,
          1017723205,
          1012169867,
          1016825184,
          1016755898,
          1016956256,
          1015294678,
          1017471054,
          1016043884,
          1014685103,
          1016709606,
          1015705227,
          1018327080,
          1013469307,
          1016896942,
          1025477360,
          1014584413,
          1015349108,
          1015818487,
          1016207402,
          1015536816,
          1016115344,
          1018123337,
          1015255504,
          1016765831,
          1016907052,
          1015790860,
          1016504194,
          1016311221,
          1009185945,
          1016049498,
          1016908617,
          1013593473,
          1017638876,
          1016586570,
          1017365846,
          1017771185,
          1017063919,
          1017639402,
          1016014949,
          1015623717,
          1018180446,
          1015729435,
          1012210572,
          1013944179,
          1017318464,
          1016795404,
          1016508520,
          1016405877,
          1016064566,
          1017571632,
          1017272852,
          1016948242,
          1015813142,
          1016819449,
          1016975293,
          1017840810,
          1018243152,
          1016692520,
          1015580888,
          1016906594,
          1017169087,
          1016357383,
          1017175335,
          1017168439,
          1016153968,
          1015929981,
          1016573812,
          1015395373,
          1014541430,
          1002936924,
          1015708097,
          1014426833,
          1016939951,
          1015862747,
          1016773083,
          1015242367,
          1015110623,
          1012401679,
          1017117763,
          1017559043,
          997814655,
          1013921258,
          1015049017,
          1014025211,
          1016004868,
          1015774311,
          1016276096,
          1016696062,
          1017374735,
          1015494060,
          1017628702,
          1016505327,
          1017455401,
          1017821197,
          1017090654,
          1009286542,
          1016554773,
          1017537885,
          1015185968,
          1016792759,
          1013308162,
          1002534124,
          1016158409,
          1012528027,
          1016408781,
          1016455993,
          1015747738,
          1015421443,
          1015311100,
          1014421825,
          1015611564,
          1016507547,
          1015467546,
          1017566752,
          1015438213,
          1017565171,
          1017337524,
          1014436762,
          1016019265,
          1016721619,
          1017461077,
          1017175361,
          1017714726,
          1016844658,
          1016810108,
          1013436506,
          1016908418,
          1015903528,
          1017087656,
          1012578326,
          1013230275,
          1018008533,
          1017443820,
          1013389125,
          1015440534,
          1015541246,
          1016026993,
          1014909040,
          1018063281,
          1017436356,
          1015343278,
          1014134089,
          1016282203,
          1018034447,
          1012277196,
          1016691764,
          1011935626,
          1016626681,
          1017192471,
          1016836213,
          1012996222,
          1013765254,
          1016008123,
          1016058451,
          1016897564,
          1017502657,
          1015829413,
          1017562405,
          1016726517,
          1015475786,
          998650580,
          1018315448,
          1015881304,
          1014658946,
          1010949832,
          1016101981,
          1014096549,
          1016052218,
          1016737301,
          1017048315,
          1017551674,
          1017842011,
          1016799878,
          1017353866,
          1015719619,
          1012491838,
          1016084345,
          1017321958,
          1017403584,
          1017229780,
          1015547989,
          1017197691,
          1018295512,
          1015094054,
          1015713541,
          1017792326,
          1013840829,
          1016490356,
          1017475653,
          1011073846,
          1018229402,
          1015800694,
          1017026102,
          1016064030,
          1015190823,
          1017366664,
          1015685532,
          1017385914,
          1015535469,
          1015320647,
          1016992819,
          1015209187,
          1014372583,
          1009452357,
          1016526345,
          1015168052,
          1016381937,
          1017205962,
          1017649190,
          1013792819,
          1015257616,
          1015570370,
          1018047160,
          1014156071,
          1016714795,
          1017060827,
          1017342009,
          1017136663,
          1016690571,
          1017316604,
          1016219853,
          1017305662,
          1016183640,
          1016164009,
          1013188703,
          1016268415,
          1016299520,
          1016440265,
          1013381814,
          1018352912,
          1017426616,
          1016570124,
          1016685534,
          1025410662,
          1016781070,
          1016541595,
          1013416133,
          1018208598,
          1017962179,
          1014371364,
          1013714674,
          1015221008,
          1017130094,
          1015013331,
          1015927793,
          1017024283,
          1012702415,
          1018174127,
          1011207693,
          1017365811,
          1012666298,
          1017151084,
          1016956341,
          1015353780,
          1016019609,
          1017607243,
          1015444346,
          1016843709,
          1015531149,
          1015991797,
          1006323357,
          1016852409,
          1017419745,
          1016361224,
          1017369355,
          1012092919,
          1016324899,
          1016084913,
          1016308076,
          1016017657,
          1015916493,
          1015967294,
          1015992574,
          1013163856,
          1016293776,
          1015736751,
          1016945884,
          1015738879,
          1015617829,
          1015512481,
          1016701007,
          1016576825,
          1015619016,
          1015912074,
          1017317420,
          1015879871,
          1016945789,
          1016316021,
          1016627555,
          1016362737,
          1017922775,
          1017254336,
          1013907431,
          1016130254,
          1016516300,
          1016390509,
          1013664795,
          1016102306,
          1017029940,
          1016534027,
          1015245274,
          1015205127,
          1015834429,
          1018341188,
          1016685954,
          1016679105,
          1017483564,
          1015104769,
          1017867324,
          1009320164,
          1015137595,
          1015381126,
          1015969350,
          1017626017,
          1016574811,
          1016390804,
          1016044054,
          1016570233,
          1016168086,
          1017334863,
          1016060865,
          1015670943,
          1016678326,
          1008212533,
          1015851367,
          1016301014,
          1017715389,
          1016253870,
          1014234755,
          1018140674,
          1015807648,
          1017481107,
          1016433182,
          1013136366,
          1011827287,
          1015509220,
          1010268439,
          1014221945,
          999228505,
          1015822800,
          1015428577,
          1017369500,
          1016798027,
          1016079748,
          1018597770,
          1016560380,
          1016169010,
          1007354169,
          1016798747,
          1015799788,
          1015610034,
          1013526803,
          1017132606,
          1016897351,
          1015497721,
          1019029210,
          1017074838,
          1015414775,
          1016400512,
          1007647174,
          1015726475,
          1016233188,
          1016770310,
          1015245845,
          1016659086,
          1016038380,
          1016523640,
          1017248164,
          1016712814,
          1017227921,
          1015880339,
          1014392147,
          1004980563,
          1017106098,
          1016538812,
          1015991973,
          1012362800,
          1013533174,
          1014892693,
          1016207046,
          1017409993,
          1016584621,
          1017703729,
          1018543455,
          1017432060,
          1016291310,
          1017613355,
          1009340585,
          1009442019,
          1012445090,
          1015611419,
          1016006735,
          1014525548,
          1016523264,
          1016883753,
          1017187860,
          1017238053,
          1015086469,
          1017918636,
          1017545263,
          1016960214,
          1016327838,
          1016445348,
          1016244201,
          1016760101,
          1016871156,
          1015184358,
          1014586065,
          1016085953,
          1015496611,
          1016701355,
          1015524069,
          1017026340,
          1015360483,
          1016168109,
          1015265974,
          1016229157,
          1016212090,
          1018012495,
          1016504197,
          1016497479,
          1016725352,
          1015478707,
          1012986079,
          1016938270,
          1016734786,
          1014749519,
          1014774515,
          1017148387,
          1017442460,
          1015544824,
          1016712498,
          1015784666,
          1016144955,
          1017427610,
          1012991396,
          1016362387,
          1013631786,
          1016509070,
          1006896687,
          1016200034,
          1017187552,
          1016186760,
          1016824637,
          1015892642,
          1014637925,
          1016485050,
          1016235285,
          1016393498,
          1016857099,
          1016200265,
          1015167009,
          1016124892,
          1015376509,
          1013857867,
          1016308545,
          1018994629,
          1017358686,
          1017400500,
          1017751298,
          1017108393,
          1016940709,
          1014784352,
          1015439407,
          1017078571,
          1017808123,
          1014811619,
          1015356061,
          1015868129,
          1016045825,
          1015118250,
          1017304496,
          1018419418,
          1021131180,
          1015868584,
          992151632,
          1015845557,
          1017176319,
          1017253942,
          1016662522,
          1017031053,
          1016947633,
          1015769623,
          1016667965,
          1014010886,
          1016562787,
          1017448421,
          1015989885,
          1016961538,
          1004803341,
          1017545543,
          1015652152,
          1013954105,
          1014936486,
          1016068940,
          1016734995,
          1016932651,
          1016287813,
          1025305510,
          1014664322,
          1016637423,
          1016828250,
          1015859972,
          1013004152,
          1011946347,
          1016532640,
          1013952800,
          1017869149,
          1018027077,
          1015105315,
          1013834865,
          1016721113,
          1017223997,
          1013563119,
          1016071833,
          1016860784,
          1015837957,
          1016564179,
          1015771686,
          1019195652,
          1014405407,
          1016216538,
          1016358986,
          1017609033,
          1015623440,
          1016572894,
          1010305242,
          1017067613,
          1016034008,
          1016797378,
          1017915614,
          1017769056,
          1017019199,
          1016241747,
          999476897,
          1014669743,
          1016897762,
          1015456032,
          1015503763,
          1016735475,
          1015908173,
          1017209933,
          1016729430,
          1009556214,
          1016601634,
          1016757528,
          1017247930,
          1013755549,
          1013627995,
          1015696341,
          1016397890,
          1016942005,
          1016084349,
          1016069747,
          1017331666,
          1016366362,
          1018326938,
          1016033074,
          1016020843,
          1015809496,
          1017473063,
          1017575620,
          1014319184,
          1016672291,
          1017488481,
          1015328199,
          1018165001,
          1007240519,
          1015518121,
          1018410527,
          1016636402,
          1016499892,
          1016848776,
          1018184911,
          1013059063,
          1016761715,
          1014197915,
          1015686700,
          1015210003,
          1020829486,
          1016474589,
          1018969889,
          1016747929,
          1016765173,
          1016712552,
          1014864704,
          1014637199,
          999619479,
          1017656009,
          1012679792,
          1017135168,
          1015438417,
          1012859241,
          1007595668,
          1017615444,
          1017859476,
          1017566418,
          1012349952,
          1015829969,
          1017274753,
          1017388165,
          1016167051,
          1015950961,
          1015140375,
          1016140955,
          1015434954,
          1017015858,
          1017561272,
          1016735353,
          1016024018,
          1017102246,
          1015161447,
          1019673443,
          1017368663,
          1016289254,
          1015819614,
          1011504606,
          1016020309,
          1017244165,
          1017968749,
          1015954604,
          1016550838,
          1017155861,
          1016014272,
          1017783076,
          1016655626,
          1016865368,
          1011660033,
          1015156860,
          1014416500,
          1013750353,
          1013994142,
          1017608079,
          1017706346,
          1016362707,
          1013496079,
          1016725221,
          1014314835,
          1017623287,
          1016722519,
          1016742266,
          1016082135,
          1013959303,
          1015893421,
          1017924717,
          1015062461,
          1017158609,
          1016398479,
          1017190990,
          1016094571,
          1006287449,
          1017641791,
          1015777704,
          1015705692,
          1015757382,
          1016529361,
          1016027713,
          1017011400,
          1016750514,
          1015591465,
          1016663111,
          1016928171,
          1016146956,
          1016377671,
          1016992546,
          1014030632,
          1016868086,
          1016075795,
          1014545904,
          1014700048,
          1017416116,
          1013113479,
          1017859011,
          1014300984,
          1016620776,
          1016696744,
          1015552272,
          1017047292,
          1016755977,
          1010487080,
          1018714116,
          1015322120,
          1017790756,
          1013993024,
          1017084826,
          1017594250,
          1010542635,
          1016314751,
          1017095210,
          1017485198,
          1014286119,
          1013773160,
          1017589053,
          1011764208,
          1016047388,
          1016264302,
          1017215740,
          1016720892,
          1016447336,
          1015938119,
          1014476106,
          1015088851,
          1017225841,
          1016002513,
          1015788930,
          1017250735,
          1018063034,
          1016781345,
          1016291530,
          1016378952,
          1014931043,
          1015787126,
          1015851696,
          1016717511,
          1018181433,
          1017070228,
          1017770740,
          1014686925,
          1015293685,
          1017041676,
          1016100194,
          1015480392,
          1016698713,
          1016711020,
          1014643185,
          1014153964,
          1015347003,
          1018068773,
          1017490276,
          1012112580,
          1015347114,
          1014165345,
          1015994305,
          1014975912,
          1015360691,
          1014773219,
          1012853456,
          1014311367,
          1015814661,
          1015014400,
          1015442593,
          1016454496,
          1017505396,
          1016076950,
          1016501358,
          1015617443,
          1014810663,
          1018594705,
          1017180545,
          1015785737,
          1017553940,
          1016297134,
          1015567807,
          1010299323,
          1014241417,
          1016902816,
          1015949743,
          1010552397,
          1016531058,
          1016102072,
          1017547910,
          1016579880,
          1017683801,
          1016013346,
          1006635795,
          1016646605,
          1015682471,
          1016119125,
          1017601022,
          1007302905,
          1016048710,
          1001689969,
          1016355676,
          1017995768,
          1016387040,
          1016862994,
          1017144493,
          1016750179,
          1015796905,
          1015666768,
          1015092341,
          1016613697,
          1016879289,
          1018400924,
          1017909953,
          1015067717,
          1015711064,
          1012050709,
          1016039743,
          1017493061,
          1016843956,
          1013780885,
          1017137995,
          1014637007,
          1014560898,
          1017968948,
          1017838393,
          1016279747,
          1016571445,
          1007495382,
          1016173693,
          1017141264,
          1016034481,
          1016181735,
          1016946711,
          1017077628,
          1015775475,
          1017291709,
          1016630070,
          1015705858,
          1016835621,
          1017101179,
          1011296175,
          1015780297,
          1017863034,
          1016969744,
          1016311185,
          1016144139,
          1015803496,
          1015579488,
          1015510344,
          1009657958,
          1016915379,
          1014371869,
          1016430938,
          1017499461,
          1017048848,
          1009029269,
          1018376704,
          1015298230,
          1014646364,
          1018414796,
          1015686864,
          1017048220,
          1013448018,
          1015864743,
          1014993719,
          1017927446,
          1012864197,
          1014664346,
          1015900899,
          1017141865,
          1016085580,
          1017144990,
          1014326374,
          1015704580,
          1016163466,
          1017891085,
          1014964694,
          1016949768,
          1016191791,
          1017591494,
          1015371173,
          1014282736,
          1005327982,
          1017145529,
          1017889424,
          1017228294,
          1015914589,
          1016055592,
          1015907504,
          1016309375,
          1015715250,
          1016116809,
          1016582319,
          1017291766,
          1016275740,
          1017755079,
          1015296542,
          1016728439,
          1016554492,
          1010193772,
          1016883948,
          1016213099,
          1012975330,
          1017853446,
          1016742135,
          1016795894,
          1014609346,
          1015099142,
          1018103141,
          1016052545,
          1014897825,
          1017252709,
          1017299395,
          1016958761,
          1017209705,
          1016938895,
          1015679130,
          1016927156,
          1016007359,
          1015759896,
          1016329590,
          1016651781,
          1015442858,
          1017572499,
          1017504388,
          1016776136,
          1015922597,
          1016550057,
          1018402696,
          1014179307,
          1016888111,
          1016523663,
          1017123629,
          1018065795,
          1016160533,
          1017358412,
          1017154338,
          1019397713,
          1017577066,
          1016194206,
          1015329447,
          1015165339,
          1016154541,
          1012935342,
          1016309655,
          1017624109,
          1017298797,
          1017962677,
          1016482828,
          1016987450,
          1015139696,
          1017033200,
          1017218799,
          1017787404,
          1016351549,
          1015798697,
          1016850891,
          1017242828,
          1015281777,
          1016781987,
          1017123479,
          1017685830,
          1015723113,
          1015143859,
          1016706537,
          1016139674,
          1014799547,
          1015744284,
          1012801243,
          1018008986,
          1015406623,
          1015380134,
          1018460581,
          1016921647,
          1018680612,
          1016031658,
          1017525004,
          1014343043,
          1015998605,
          1016303619,
          1016197034,
          1017446646,
          1017949596,
          1017531467,
          1017062976,
          1012572300,
          1017000205,
          1005943182,
          1016581617,
          1011411251,
          1011930509,
          1018000744,
          1010356268,
          1015018779,
          1016927888,
          1016796978,
          1013980013,
          1013126417,
          1016908425,
          1014626903,
          1016060373,
          1018250523,
          1016391306,
          1011432013,
          1014794300,
          1016852003,
          1017199315,
          1014603624,
          1010973171,
          1016251530,
          1016513751,
          1016613227,
          1016748968,
          1017382249,
          1016326471,
          1019004997,
          1015652897,
          1018734055,
          1016093547,
          1013666558,
          1017271526,
          1016899761,
          1011851720,
          1017551391,
          1015518098,
          1017981622,
          1013580955,
          1013709128,
          1012531257,
          1017366237,
          1017894435,
          1016884584,
          1017879917,
          1016437935,
          1015983233,
          1015823497,
          1016246395,
          1016260060,
          1016890200,
          1016566603,
          1017091356,
          1017397928,
          1016249356,
          1017434444,
          1017139406,
          1018271345,
          1016050998,
          1015645314,
          1017293040,
          1016872049,
          1015998790,
          1004717435,
          1015880238,
          1016205834,
          1015496371,
          1017191044,
          1013976632,
          1017382224,
          1017809907,
          1016781158,
          1016856274,
          1008934046,
          1016321967,
          1017485069,
          1013985938,
          1015890828,
          1017402088,
          1017598261,
          1015987964,
          1018100302,
          1018037430,
          1017381199,
          1016697442,
          1016187170,
          1015123445,
          1017543168,
          1017294115,
          1018080776,
          1016644269,
          1014773460,
          1016239606,
          1011565118,
          1015453101,
          1015770816,
          1017203094,
          1017195472,
          1015617937,
          1015466627,
          1017356313,
          1013746840,
          1014483686,
          1015891921,
          1014803391,
          1016611670,
          1018724133,
          1017307544,
          1014579310,
          1011590344,
          1015568065,
          1016433794,
          1015022715,
          1016659178,
          1015637025,
          1016146273,
          1016469977,
          1017637829,
          1010727970,
          1017320393,
          1016313931,
          1018490489,
          1014887767,
          1016832836,
          1016817971,
          1017110352,
          1013183043,
          1017124573,
          1016202994,
          1015536063,
          1016632138,
          1016125737,
          1016723623,
          1016892838,
          1013775164,
          1015800305,
          1016777048,
          1016722167,
          1016767567,
          1015217988,
          1016496728,
          1017564092,
          1015054011,
          1016471403,
          1016754414,
          1016134552,
          1016741464,
          1015880897,
          1016658640,
          1012519208,
          1015212877,
          1015686099,
          1017301338,
          1017352567,
          1017584918,
          1017363646,
          1016682675,
          1016175350,
          1015845127,
          1016072135,
          1017576113,
          1016128340,
          1016113805,
          1017105291,
          1014031292,
          1015069665,
          1017056228,
          1016144024,
          1017910877,
          1015659348,
          1017519384,
          1016584394,
          1012889206,
          1016969901,
          1017425949,
          1015240472,
          1003862412,
          1015934335,
          1015925003,
          1014329815,
          1016616675,
          1017380086,
          1018344157,
          1014168809,
          1015267438,
          1016417837,
          1015521343,
          1016712572,
          1016969258,
          1009838930,
          1011854868,
          1014881583,
          1017591545,
          1017016849,
          1016565811,
          998469404,
          1016826244,
          1013741582,
          1017435893,
          1017764226,
          1014705418,
          1016102937,
          1017354080,
          1015074232,
          1017931906,
          1017029328,
          1016302209,
          1017002271,
          1018129954,
          1017632330,
          1017930335,
          1016054157,
          1017056555,
          1014334316,
          1014939243,
          1015615483,
          1014678497,
          1015189174,
          1017116918,
          1017323753,
          1017426440,
          1016709512,
          1017345696,
          1015010533,
          1015430879,
          1018157600,
          1017368052,
          1015749252,
          1015587772,
          1018378909,
          1017006744,
          1017309374,
          1016809913,
          1016312371,
          1015254218,
          1012342385,
          1015551716,
          1017099324,
          1016488317,
          1012527233,
          1015419289,
          1014394583,
          1011452113,
          1016883496,
          1017952815,
          1013358511,
          1016408660,
          1016064532,
          1012304157,
          1009467185,
          1015942510,
          1016265494,
          1016700419,
          1007823329,
          1012187005,
          1017363616,
          1016436877,
          1016444299,
          1013777713,
          1016767252,
          1020828458,
          1016365509,
          1017108527,
          1016177985
        ]
      },
      "dequantized": {
        "dtype": "float32",
        "values": [
          0.01744733564555645,
          0.01789415255188942,
          0.019269129261374474,
          0.02747539058327675,
          0.012982663698494434,
          0.018253421410918236,
          0.020544148981571198,
          0.017760399729013443,
          0.020046893507242203,
          0.018710587173700333,
          0.01826176792383194,
          0.019024178385734558,
          0.014410617761313915,
          0.01668868027627468,
          0.019494930282235146,
          0.018456965684890747,
          0.018958138301968575,
          0.019247760996222496,
          0.02052062191069126,
          0.014269954524934292,
          0.016798555850982666,
          0.01715211570262909,
          0.02068992517888546,
          0.021432962268590927,
          0.01844487525522709,
          0.016268141567707062,
          0.018583476543426514,
          0.016115976497530937,
          0.018775412812829018,
          0.018713906407356262,
          0.01989978924393654,
          0.020731939002871513,
          0.016934655606746674,
          0.01769951917231083,
          0.016274956986308098,
          0.01605841889977455,
          0.014607896097004414,
          0.018889332190155983,
          0.015033083967864513,
          0.01778673380613327,
          0.021099168807268143,
          0.01623716950416565,
          0.018503665924072266,
          0.020943092182278633,
          0.017531484365463257,
          0.017256176099181175,
          0.01791883260011673,
          0.01868251897394657,
          0.021129075437784195,
          0.019342361018061638,
          0.019153783097863197,
          0.02134895697236061,
          0.019456250593066216,
          0.014810175634920597,
          0.014666830189526081,
          0.018737925216555595,
          0.014976866543293,
          0.01713097281754017,
          0.019698400050401688,
          0.020411938428878784,
          0.01689276285469532,
          0.014552051201462746,
          0.01793842762708664,
          0.02200445905327797,
          0.01965273730456829,
          0.016024546697735786,
          0.015615802258253098,
          0.0167906004935503,
          0.01160419825464487,
          0.014484376646578312,
          0.014773812144994736,
          0.017288118600845337,
          0.02077161893248558,
          0.015848470851778984,
          0.02122141420841217,
          0.011194532737135887,
          0.017643343657255173,
          0.017661767080426216,
          0.01844329759478569,
          0.01403634063899517,
          0.0159643292427063,
          0.01969292014837265,
          0.016699716448783875,
          0.019629545509815216,
          0.018012909218668938,
          0.015344690531492233,
          0.0210439283400774,
          0.013309185393154621,
          0.018494224175810814,
          0.014759884215891361,
          0.0187157541513443,
          0.01717129722237587,
          0.019041981548070908,
          0.01983477734029293,
          0.00900447927415371,
          0.014810658060014248,
          0.019151872023940086,
          0.018750209361314774,
          0.017380937933921814,
          0.015386627987027168,
          0.011945552192628384,
          0.01978612132370472,
          0.014540894888341427,
          0.018988586962223053,
          0.018624771386384964,
          0.016447553411126137,
          0.01878398470580578,
          0.021479226648807526,
          0.018496830016374588,
          0.018931280821561813,
          0.050076305866241455,
          0.019612180069088936,
          0.018461447209119797,
          0.01489314716309309,
          0.01918104849755764,
          0.019059568643569946,
          0.019136887043714523,
          0.01623918116092682,
          0.020946767181158066,
          0.016963407397270203,
          0.021881619468331337,
          0.018769819289445877,
          0.020320864394307137,
          0.018577130511403084,
          0.018440088257193565,
          0.019468583166599274,
          0.009854716248810291,
          0.016103217378258705,
          0.010732648894190788,
          0.009820297360420227,
          0.019164681434631348,
          0.018073584884405136,
          0.0169560294598341,
          0.020353950560092926,
          0.01639607734978199,
          0.016338344663381577,
          0.018359964713454247,
          0.016789056360721588,
          0.01572464592754841,
          0.01618272066116333,
          0.015346255153417587,
          0.01880619488656521,
          0.019921299070119858,
          0.01775233820080757,
          0.019230229780077934,
          0.016593575477600098,
          0.019685309380292892,
          0.017574375495314598,
          0.009149492718279362,
          0.011093765497207642,
          0.016576772555708885,
          0.020696362480521202,
          0.003437209874391556,
          0.014969720505177975,
          0.019283169880509377,
          0.02215217426419258,
          0.019079353660345078,
          0.01886773109436035,
          0.022021224722266197,
          0.014947419054806232,
          0.019882746040821075,
          0.020611505955457687,
          0.016777196899056435,
          0.017556244507431984,
          0.017088310793042183,
          0.016500692814588547,
          0.014580762945115566,
          0.016687145456671715,
          0.018988056108355522,
          0.018989121541380882,
          0.016475781798362732,
          0.016262276098132133,
          0.017085913568735123,
          0.018462762236595154,
          0.00662599503993988,
          0.01752263307571411,
          0.018887247890233994,
          0.0178727675229311,
          0.019206969067454338,
          0.019592544063925743,
          0.017325131222605705,
          0.019852476194500923,
          0.01568012125790119,
          0.020098403096199036,
          0.014286093413829803,
          0.015193764120340347,
          0.015936117619276047,
          0.016062315553426743,
          0.023475144058465958,
          0.013501512818038464,
          0.019499709829688072,
          0.019972115755081177,
          0.015226935036480427,
          0.019584178924560547,
          0.018796883523464203,
          0.020850250497460365,
          0.019696690142154694,
          0.019069582223892212,
          0.02195040136575699,
          0.017458459362387657,
          0.023120375350117683,
          0.01108024176210165,
          0.013163711875677109,
          0.018572412431240082,
          0.016964318230748177,
          0.017960650846362114,
          0.021236339583992958,
          0.018800733610987663,
          0.014513303525745869,
          0.015509450808167458,
          0.01965818926692009,
          0.018253153190016747,
          0.019657140597701073,
          0.016049882397055626,
          0.018697464838624,
          0.01877979002892971,
          0.016967633739113808,
          0.02004893496632576,
          0.012210974469780922,
          0.018505167216062546,
          0.01873721182346344,
          0.021537287160754204,
          0.015132815577089787,
          0.01469812449067831,
          0.015951719135046005,
          0.016601568087935448,
          0.01576194539666176,
          0.016689572483301163,
          0.01319654006510973,
          0.01689247041940689,
          0.01858757622539997,
          0.015009636990725994,
          0.0175870880484581,
          0.022156044840812683,
          0.014895501546561718,
          0.0158858485519886,
          0.02391256019473076,
          0.015169337391853333,
          0.021032098680734634,
          0.016906961798667908,
          0.021730391308665276,
          0.01856212690472603,
          0.020346492528915405,
          0.018193388357758522,
          0.016245003789663315,
          0.02106626331806183,
          0.018726013600826263,
          0.01773734763264656,
          0.017510978505015373,
          0.008719435892999172,
          0.017766492441296577,
          0.018620431423187256,
          0.01863524690270424,
          0.02048470266163349,
          0.018371043726801872,
          0.03753823786973953,
          0.019518358632922173,
          0.018425676971673965,
          0.017563115805387497,
          0.015793247148394585,
          0.018415968865156174,
          0.014932091347873211,
          0.01834813319146633,
          0.014598442241549492,
          0.018810274079442024,
          0.01679808460175991,
          0.019116228446364403,
          0.02197389118373394,
          0.016000445932149887,
          0.017177090048789978,
          0.019650427624583244,
          0.013618037104606628,
          0.0162606593221426,
          0.018395137041807175,
          0.016548404470086098,
          0.018443064764142036,
          0.021659446880221367,
          0.018239254131913185,
          0.015193929895758629,
          0.018406540155410767,
          0.020672807469964027,
          0.01749926246702671,
          0.02031855657696724,
          0.021043717861175537,
          0.021115290001034737,
          0.0036971194203943014,
          0.02145182341337204,
          0.014662718400359154,
          0.01719082146883011,
          0.01687493734061718,
          0.017990604043006897,
          0.01704265922307968,
          0.0203094519674778,
          0.017397239804267883,
          0.01781744509935379,
          0.015021262690424919,
          0.016848407685756683,
          0.013207022100687027,
          0.020651113241910934,
          0.016340773552656174,
          0.020037919282913208,
          0.013406249694526196,
          0.0172574482858181,
          0.018710654228925705,
          0.0208895206451416,
          0.015260797925293446,
          0.02100895531475544,
          0.020002594217658043,
          0.020609093829989433,
          0.02018108405172825,
          0.017471102997660637,
          0.020658569410443306,
          0.018183788284659386,
          0.018643811345100403,
          0.019596105441451073,
          0.014985299669206142,
          0.018436022102832794,
          0.01775514893233776,
          0.010721423663198948,
          0.01815801113843918,
          0.019607558846473694,
          0.01753319427371025,
          0.01696646213531494,
          0.01502166222780943,
          0.018854966387152672,
          0.019573090597987175,
          0.018400020897388458,
          0.01840011589229107,
          0.018914612010121346,
          0.01804395206272602,
          0.013830685056746006,
          0.013226195238530636,
          0.017130911350250244,
          0.020516013726592064,
          0.019068518653512,
          0.02030305564403534,
          0.019363606348633766,
          0.01638195477426052,
          0.01822725310921669,
          0.016564158722758293,
          0.018020955845713615,
          0.01727660372853279,
          0.018103422597050667,
          0.015025043860077858,
          0.020231051370501518,
          0.01646295189857483,
          0.017542775720357895,
          0.017055803909897804,
          0.02142101339995861,
          0.017659561708569527,
          0.01655592955648899,
          0.014206231571733952,
          0.017849151045084,
          0.01782015524804592,
          0.022361328825354576,
          0.01932564564049244,
          0.017574116587638855,
          0.015336602926254272,
          0.020150823518633842,
          0.020626051351428032,
          0.02093585394322872,
          0.02198253571987152,
          0.016275666654109955,
          0.017675908282399178,
          0.018364783376455307,
          0.016685310751199722,
          0.01836511120200157,
          0.02221783809363842,
          0.020788045600056648,
          0.017477158457040787,
          0.02033834345638752,
          0.01435039658099413,
          0.017141899093985558,
          0.008400741033256054,
          0.014312583953142166,
          0.023087436333298683,
          0.014063434675335884,
          0.016633952036499977,
          0.019374435767531395,
          0.009627062827348709,
          0.020889360457658768,
          0.019100360572338104,
          0.017949506640434265,
          0.016549093648791313,
          0.01870121620595455,
          0.0189202930778265,
          0.016857201233506203,
          0.01900468021631241,
          0.01825454831123352,
          0.017858656123280525,
          0.018651083111763,
          0.020221779122948647,
          0.017548834905028343,
          0.01676481030881405,
          0.019865579903125763,
          0.016902444884181023,
          0.016572367399930954,
          0.019520778208971024,
          0.020646998658776283,
          0.015461438335478306,
          0.01865224540233612,
          0.015672212466597557,
          0.016360746696591377,
          0.018129004165530205,
          0.01564154587686062,
          0.01909583806991577,
          0.01867121085524559,
          0.019153114408254623,
          0.017419937998056412,
          0.018813585862517357,
          0.020467499271035194,
          0.019345875829458237,
          0.0209623072296381,
          0.02111332304775715,
          0.01613607443869114,
          0.018434491008520126,
          0.01869264803826809,
          0.04040245711803436,
          0.017840633168816566,
          0.018337123095989227,
          0.014639037661254406,
          0.018422497436404228,
          0.021048706024885178,
          0.019413884729146957,
          0.014334786683321,
          0.016921982169151306,
          0.016493985429406166,
          0.012632963247597218,
          0.019914986565709114,
          0.018841395154595375,
          0.018327759578824043,
          0.01882178895175457,
          0.017748378217220306,
          0.018076492473483086,
          0.01555381715297699,
          0.01906736195087433,
          0.02019791305065155,
          0.015400583855807781,
          0.017248312011361122,
          0.014711766503751278,
          0.018394166603684425,
          0.015337533317506313,
          0.019931059330701828,
          0.017798496410250664,
          0.014238855801522732,
          0.01769762486219406,
          0.013675824739038944,
          0.01849016174674034,
          0.019942350685596466,
          0.0171027984470129,
          0.022025126963853836,
          0.018984461203217506,
          0.021423444151878357,
          0.018902305513620377,
          0.01824040897190571,
          0.021776869893074036,
          0.016041917726397514,
          0.01907915249466896,
          0.01720602437853813,
          0.019507594406604767,
          0.020267503336071968,
          0.018711386248469353,
          0.015113902278244495,
          0.017420612275600433,
          0.018183069303631783,
          0.01945038139820099,
          0.014657305553555489,
          0.0149778351187706,
          0.018505871295928955,
          0.012576092034578323,
          0.0037164767272770405,
          0.022112471982836723,
          0.01643829233944416,
          0.015966974198818207,
          0.019970444962382317,
          0.017364773899316788,
          0.013748889788985252,
          0.01636725850403309,
          0.016612976789474487,
          0.018712634220719337,
          0.01821753941476345,
          0.019399799406528473,
          0.0127298254519701,
          0.02064451202750206,
          0.0205112025141716,
          0.016060294583439827,
          0.019793633371591568,
          0.01643688976764679,
          0.015697237104177475,
          0.019808152690529823,
          0.02064211294054985,
          0.018055282533168793,
          0.0199133213609457,
          0.013612822629511356,
          0.00910709984600544,
          0.017990687862038612,
          0.01727987825870514,
          0.0185309499502182,
          0.02016032673418522,
          0.020416049286723137,
          0.018329275771975517,
          0.0165458545088768,
          0.020883886143565178,
          0.016175663098692894,
          0.01795058324933052,
          0.019436923786997795,
          0.018240686506032944,
          0.022371871396899223,
          0.016974912956357002,
          0.016363469883799553,
          0.017056738957762718,
          0.015055807307362556,
          0.014718599617481232,
          0.018234936520457268,
          0.015171226114034653,
          0.0029763723723590374,
          0.01921369694173336,
          0.019259139895439148,
          0.014760809019207954,
          0.018682852387428284,
          0.02227981574833393,
          0.018683213740587234,
          0.016918789595365524,
          0.018367623910307884,
          0.015849512070417404,
          0.04582405835390091,
          0.01776764541864395,
          0.022329457104206085,
          0.015961648896336555,
          0.016265301033854485,
          0.012973467819392681,
          0.017938509583473206,
          0.024099815636873245,
          0.017962945625185966,
          0.017785802483558655,
          0.02178582176566124,
          0.0123308589681983,
          0.016397852450609207,
          0.018226351588964462,
          0.015525019727647305,
          0.014362767338752747,
          0.018219927325844765,
          0.018059344962239265,
          0.020298369228839874,
          0.01933036930859089,
          0.017517128959298134,
          0.01936723291873932,
          0.018204806372523308,
          0.018153192475438118,
          0.020915653556585312,
          0.03703613951802254,
          0.014990268275141716,
          0.016418352723121643,
          0.018247434869408607,
          0.016340691596269608,
          0.018881041556596756,
          0.017485065385699272,
          0.01994962804019451,
          0.01574762351810932,
          0.014923467300832272,
          0.01716739311814308,
          0.016788363456726074,
          0.017986247316002846,
          0.008311561308801174,
          0.016792017966508865,
          0.017111998051404953,
          0.020513486117124557,
          0.014224063605070114,
          0.01567143015563488,
          0.01685134507715702,
          0.020461631938815117,
          0.016768626868724823,
          0.018792321905493736,
          0.016275372356176376,
          0.01798289828002453,
          0.023410724475979805,
          0.015818051993846893,
          0.018101360648870468,
          0.016076458618044853,
          0.021111974492669106,
          0.016175199300050735,
          0.018358368426561356,
          0.017175370827317238,
          0.01552923209965229,
          0.012206880375742912,
          0.017542678862810135,
          0.015126344747841358,
          0.020685985684394836,
          0.017281804233789444,
          0.01651466079056263,
          0.018745236098766327,
          0.019311046227812767,
          0.017967022955417633,
          0.020242024213075638,
          0.016447722911834717,
          0.019660985097289085,
          0.014528259634971619,
          0.020443564280867577,
          0.01952703855931759,
          0.021622294560074806,
          0.006278260610997677,
          0.01619660295546055,
          0.0167970173060894,
          0.01884329877793789,
          0.018111977726221085,
          0.020321913063526154,
          0.01986473985016346,
          0.01901000179350376,
          0.012808805331587791,
          0.0183679461479187,
          0.02155059203505516,
          0.019454501569271088,
          0.01982814259827137,
          0.020740855485200882,
          0.02147207222878933,
          0.020285530015826225,
          0.015548170544207096,
          0.022513631731271744,
          0.016556475311517715,
          0.020942386239767075,
          0.018559006974101067,
          0.01687939465045929,
          0.009209862910211086,
          0.015448062680661678,
          0.016792181879281998,
          0.013802341185510159,
          0.01566367968916893,
          0.018121564760804176,
          0.01680091582238674,
          0.017644699662923813,
          0.022946491837501526,
          0.01695186085999012,
          0.021346628665924072,
          0.01721007190644741,
          0.02201116643846035,
          0.012451916933059692,
          0.01591983623802662,
          0.017321815714240074,
          0.015753641724586487,
          0.0153984185308218,
          0.018767274916172028,
          0.018243923783302307,
          0.016772698611021042,
          0.017703454941511154,
          0.018693238496780396,
          0.018754558637738228,
          0.016445644199848175,
          0.017759080976247787,
          0.020228611305356026,
          0.017971878871321678,
          0.014347168616950512,
          0.02091386541724205,
          0.0176839716732502,
          0.01676381751894951,
          0.017837652936577797,
          0.01351149845868349,
          0.013886172324419022,
          0.015194419771432877,
          0.019267555326223373,
          0.017532262951135635,
          0.015906699001789093,
          0.01603359915316105,
          0.019273577257990837,
          0.017481619492173195,
          0.017001356929540634,
          0.02051471546292305,
          0.019536515697836876,
          0.018788594752550125,
          0.016297152265906334,
          0.01845802180469036,
          0.0166073776781559,
          0.0201284009963274,
          0.015095917508006096,
          0.015922565013170242,
          0.019319145008921623,
          0.01768830046057701,
          0.01889907941222191,
          0.019267931580543518,
          0.019385861232876778,
          0.016823429614305496,
          0.014305086806416512,
          0.019811740145087242,
          0.01854356750845909,
          0.0186925046145916,
          0.01690889708697796,
          0.01840810850262642,
          0.013964858837425709,
          0.016786087304353714,
          0.017333539202809334,
          0.018121223896741867,
          0.01945795677602291,
          0.019627777859568596,
          0.020011035725474358,
          0.02111201174557209,
          0.01932718977332115,
          0.009629704989492893,
          0.020459195598959923,
          0.01822502352297306,
          0.018946712836623192,
